#ifndef SINE_MODEL_H
#define SINE_MODEL_H


unsigned int sine_model_len = 3252;
unsigned char sine_model[] = {
 0x1c, 0x00, 0x00, 0x00, 0x54, 0x46, 0x4c, 0x33, 0x14, 0x00, 0x20, 0x00,
  0x1c, 0x00, 0x18, 0x00, 0x14, 0x00, 0x10, 0x00, 0x0c, 0x00, 0x00, 0x00,
  0x08, 0x00, 0x04, 0x00, 0x14, 0x00, 0x00, 0x00, 0x1c, 0x00, 0x00, 0x00,
  0x98, 0x00, 0x00, 0x00, 0xf0, 0x00, 0x00, 0x00, 0x14, 0x07, 0x00, 0x00,
  0x24, 0x07, 0x00, 0x00, 0x60, 0x0c, 0x00, 0x00, 0x03, 0x00, 0x00, 0x00,
  0x01, 0x00, 0x00, 0x00, 0x10, 0x00, 0x00, 0x00, 0x00, 0x00, 0x0a, 0x00,
  0x10, 0x00, 0x0c, 0x00, 0x08, 0x00, 0x04, 0x00, 0x0a, 0x00, 0x00, 0x00,
  0x0c, 0x00, 0x00, 0x00, 0x1c, 0x00, 0x00, 0x00, 0x3c, 0x00, 0x00, 0x00,
  0x0f, 0x00, 0x00, 0x00, 0x73, 0x65, 0x72, 0x76, 0x69, 0x6e, 0x67, 0x5f,
  0x64, 0x65, 0x66, 0x61, 0x75, 0x6c, 0x74, 0x00, 0x01, 0x00, 0x00, 0x00,
  0x04, 0x00, 0x00, 0x00, 0x90, 0xff, 0xff, 0xff, 0x09, 0x00, 0x00, 0x00,
  0x04, 0x00, 0x00, 0x00, 0x08, 0x00, 0x00, 0x00, 0x6f, 0x75, 0x74, 0x70,
  0x75, 0x74, 0x5f, 0x30, 0x00, 0x00, 0x00, 0x00, 0x01, 0x00, 0x00, 0x00,
  0x04, 0x00, 0x00, 0x00, 0xba, 0xf9, 0xff, 0xff, 0x04, 0x00, 0x00, 0x00,
  0x0c, 0x00, 0x00, 0x00, 0x6b, 0x65, 0x72, 0x61, 0x73, 0x5f, 0x74, 0x65,
  0x6e, 0x73, 0x6f, 0x72, 0x00, 0x00, 0x00, 0x00, 0x02, 0x00, 0x00, 0x00,
  0x34, 0x00, 0x00, 0x00, 0x04, 0x00, 0x00, 0x00, 0xdc, 0xff, 0xff, 0xff,
  0x0c, 0x00, 0x00, 0x00, 0x04, 0x00, 0x00, 0x00, 0x13, 0x00, 0x00, 0x00,
  0x43, 0x4f, 0x4e, 0x56, 0x45, 0x52, 0x53, 0x49, 0x4f, 0x4e, 0x5f, 0x4d,
  0x45, 0x54, 0x41, 0x44, 0x41, 0x54, 0x41, 0x00, 0x08, 0x00, 0x0c, 0x00,
  0x08, 0x00, 0x04, 0x00, 0x08, 0x00, 0x00, 0x00, 0x0b, 0x00, 0x00, 0x00,
  0x04, 0x00, 0x00, 0x00, 0x13, 0x00, 0x00, 0x00, 0x6d, 0x69, 0x6e, 0x5f,
  0x72, 0x75, 0x6e, 0x74, 0x69, 0x6d, 0x65, 0x5f, 0x76, 0x65, 0x72, 0x73,
  0x69, 0x6f, 0x6e, 0x00, 0x0d, 0x00, 0x00, 0x00, 0x20, 0x06, 0x00, 0x00,
  0x18, 0x06, 0x00, 0x00, 0xc8, 0x05, 0x00, 0x00, 0xac, 0x05, 0x00, 0x00,
  0x5c, 0x05, 0x00, 0x00, 0x4c, 0x01, 0x00, 0x00, 0xfc, 0x00, 0x00, 0x00,
  0xac, 0x00, 0x00, 0x00, 0xa4, 0x00, 0x00, 0x00, 0x9c, 0x00, 0x00, 0x00,
  0x94, 0x00, 0x00, 0x00, 0x74, 0x00, 0x00, 0x00, 0x04, 0x00, 0x00, 0x00,
  0x6a, 0xfa, 0xff, 0xff, 0x04, 0x00, 0x00, 0x00, 0x60, 0x00, 0x00, 0x00,
  0x0c, 0x00, 0x00, 0x00, 0x08, 0x00, 0x0e, 0x00, 0x08, 0x00, 0x04, 0x00,
  0x08, 0x00, 0x00, 0x00, 0x10, 0x00, 0x00, 0x00, 0x28, 0x00, 0x00, 0x00,
  0x00, 0x00, 0x06, 0x00, 0x08, 0x00, 0x04, 0x00, 0x06, 0x00, 0x00, 0x00,
  0x04, 0x00, 0x00, 0x00, 0x01, 0x00, 0x00, 0x00, 0xea, 0x03, 0x00, 0x00,
  0x0c, 0x00, 0x18, 0x00, 0x14, 0x00, 0x10, 0x00, 0x0c, 0x00, 0x04, 0x00,
  0x0c, 0x00, 0x00, 0x00, 0x07, 0xfb, 0xf7, 0xe3, 0x6d, 0xe7, 0x01, 0x38,
  0x02, 0x00, 0x00, 0x00, 0x02, 0x00, 0x00, 0x00, 0x04, 0x00, 0x00, 0x00,
  0x06, 0x00, 0x00, 0x00, 0x32, 0x2e, 0x32, 0x31, 0x2e, 0x30, 0x00, 0x00,
  0xd6, 0xfa, 0xff, 0xff, 0x04, 0x00, 0x00, 0x00, 0x10, 0x00, 0x00, 0x00,
  0x31, 0x2e, 0x35, 0x2e, 0x30, 0x00, 0x00, 0x00, 0x00, 0x00, 0x00, 0x00,
  0x00, 0x00, 0x00, 0x00, 0x7c, 0xf5, 0xff, 0xff, 0x80, 0xf5, 0xff, 0xff,
  0x84, 0xf5, 0xff, 0xff, 0xfe, 0xfa, 0xff, 0xff, 0x04, 0x00, 0x00, 0x00,
  0x40, 0x00, 0x00, 0x00, 0x9c, 0x1b, 0x02, 0xbe, 0x4b, 0xe7, 0x2d, 0x3f,
  0x00, 0x00, 0x00, 0x00, 0x5d, 0x82, 0x0b, 0xbc, 0x00, 0x00, 0x00, 0x00,
  0x00, 0x00, 0x00, 0x00, 0x00, 0x00, 0x00, 0x00, 0xd4, 0x10, 0x95, 0x3e,
  0x00, 0x00, 0x00, 0x00, 0xd4, 0x8d, 0x68, 0x3f, 0xfd, 0xfc, 0x17, 0xbf,
  0x00, 0x00, 0x00, 0x00, 0x00, 0x00, 0x00, 0x00, 0x00, 0x00, 0x00, 0x00,
  0x00, 0x00, 0x00, 0x00, 0x00, 0x00, 0x00, 0x00, 0x4a, 0xfb, 0xff, 0xff,
  0x04, 0x00, 0x00, 0x00, 0x40, 0x00, 0x00, 0x00, 0xf9, 0xd4, 0x1f, 0x3f,
  0xc4, 0xca, 0x7d, 0x3e, 0x38, 0x75, 0xba, 0xbd, 0x44, 0xab, 0xbc, 0xb9,
  0xbc, 0xae, 0x04, 0xbf, 0x18, 0x26, 0xa5, 0xbd, 0x37, 0x78, 0xe6, 0xbe,
  0x1c, 0x70, 0xd1, 0x3e, 0x40, 0xa3, 0xe2, 0xbc, 0x8d, 0x0f, 0x25, 0x3e,
  0x8e, 0x72, 0x30, 0x3f, 0xcd, 0x65, 0xf0, 0xbe, 0xbe, 0xc2, 0x60, 0xbe,
  0x6e, 0x8b, 0x46, 0xbe, 0x84, 0x37, 0x05, 0xbf, 0x08, 0x38, 0xd9, 0xbd,
  0x96, 0xfb, 0xff, 0xff, 0x04, 0x00, 0x00, 0x00, 0x00, 0x04, 0x00, 0x00,
  0x1d, 0xca, 0x0f, 0x3e, 0x2a, 0x70, 0x4f, 0xbe, 0x6f, 0x8d, 0x3d, 0xbe,
  0x57, 0xbd, 0x43, 0xbc, 0x6c, 0x7a, 0x8a, 0xbd, 0xf6, 0x80, 0xb9, 0xbe,
  0xcf, 0x60, 0x85, 0x3e, 0xb6, 0xf2, 0x9f, 0xbe, 0x48, 0x9d, 0x04, 0xbe,
  0xc5, 0x65, 0x97, 0x3d, 0xef, 0xf0, 0xc8, 0x3e, 0xfd, 0x56, 0xc4, 0x3e,
  0xc0, 0x05, 0x96, 0xbe, 0xb4, 0x11, 0x15, 0xbe, 0xbf, 0xfb, 0xcd, 0x3e,
  0xb0, 0x47, 0x11, 0xbd, 0x1d, 0x0b, 0x80, 0xbe, 0xc8, 0x7d, 0xf5, 0x3e,
  0xe8, 0x37, 0x92, 0xbe, 0x82, 0x6b, 0x14, 0xbe, 0xb0, 0xa5, 0x0e, 0x3d,
  0xd3, 0x0a, 0xbd, 0x3e, 0xd5, 0x35, 0x8c, 0x3e, 0x5a, 0x43, 0x60, 0x3e,
  0xf3, 0x26, 0xc0, 0x3e, 0x54, 0xbc, 0x21, 0x3e, 0xd9, 0x19, 0x14, 0xbf,
  0x68, 0x0a, 0x0c, 0xbd, 0x0e, 0xc2, 0x3f, 0x3e, 0x60, 0x4f, 0x45, 0xbc,
  0x11, 0xca, 0xc7, 0xbe, 0x03, 0x00, 0xa0, 0xbe, 0x2c, 0x5b, 0x00, 0xbe,
  0x9d, 0xf1, 0xfc, 0xbe, 0x80, 0x8e, 0x11, 0xbc, 0x34, 0xbb, 0x58, 0xbe,
  0x3a, 0x09, 0x7c, 0x3e, 0x90, 0x3c, 0xb1, 0x3c, 0x42, 0x89, 0x44, 0x3e,
  0x7c, 0xb2, 0xb6, 0x3e, 0x83, 0xec, 0xda, 0x3e, 0x92, 0x34, 0x22, 0xbd,
  0x9a, 0xa8, 0xe7, 0x3e, 0xe2, 0x8f, 0x6f, 0x3e, 0x30, 0xc6, 0x9c, 0xbc,
  0xaf, 0x76, 0x99, 0x3e, 0xac, 0x85, 0xd1, 0x3d, 0x56, 0x33, 0xa0, 0xbe,
  0x84, 0xa4, 0x3b, 0xbe, 0xbc, 0xf7, 0x22, 0x3e, 0xf1, 0xe0, 0xd6, 0x3e,
  0x48, 0x48, 0x8d, 0xbe, 0x9c, 0x9e, 0x8e, 0x3d, 0x00, 0x09, 0xc8, 0x3b,
  0xec, 0xc5, 0x7d, 0xbe, 0xfc, 0xf3, 0xc0, 0x3e, 0x94, 0xf6, 0xbb, 0x3d,
  0x7c, 0x76, 0x7e, 0x3e, 0xbb, 0x64, 0x1d, 0xbf, 0xf0, 0xd6, 0xce, 0x3c,
  0xea, 0x6a, 0x9e, 0xbe, 0x96, 0x91, 0x4f, 0x3e, 0xd4, 0x62, 0xaa, 0xbd,
  0xc0, 0x0f, 0x7a, 0x3c, 0x85, 0x89, 0x49, 0xbf, 0xf9, 0xea, 0x09, 0x3d,
  0x30, 0x86, 0xce, 0xbe, 0xb2, 0x48, 0x12, 0xbe, 0x89, 0x6b, 0xc8, 0x3e,
  0x41, 0x22, 0x8f, 0x3e, 0xf8, 0x81, 0x13, 0x3d, 0xd3, 0xfb, 0x1f, 0xbd,
  0x64, 0x41, 0xea, 0xbd, 0x6a, 0x2f, 0x9e, 0x3e, 0xc5, 0xe6, 0x39, 0xbe,
  0x73, 0x82, 0x8c, 0x3e, 0xd5, 0x9f, 0xa3, 0x3e, 0x30, 0x86, 0xb4, 0xbe,
  0x12, 0xa0, 0x62, 0xbe, 0xae, 0x5e, 0x96, 0xbe, 0xa6, 0x41, 0x00, 0x3e,
  0x66, 0x3f, 0x80, 0xbe, 0x3e, 0x20, 0x2c, 0x3e, 0x1c, 0x2f, 0xb4, 0xbe,
  0x64, 0xc3, 0x8d, 0xbe, 0xfb, 0x55, 0xc0, 0xbe, 0xc7, 0x4b, 0xdc, 0xbe,
  0x20, 0xbb, 0x84, 0x3c, 0x75, 0x51, 0x6b, 0xbe, 0x46, 0x00, 0x26, 0xbe,
  0x82, 0xeb, 0x0f, 0xbe, 0x62, 0x06, 0x86, 0xbe, 0x00, 0x44, 0xa4, 0xbe,
  0x46, 0xb8, 0x16, 0xbe, 0x00, 0x24, 0x4f, 0xba, 0xee, 0x3a, 0x3b, 0xbe,
  0x65, 0x6a, 0x98, 0x3e, 0x41, 0xdb, 0xbf, 0xbb, 0xca, 0x46, 0xb1, 0xbe,
  0xb2, 0x17, 0xdb, 0xbe, 0xd5, 0xb6, 0x9c, 0x3e, 0x76, 0x13, 0xdd, 0xbe,
  0xf4, 0x49, 0xb1, 0xbe, 0x05, 0xb3, 0xb2, 0xbe, 0x08, 0x7c, 0x8f, 0xbd,
  0x96, 0x95, 0xee, 0x3e, 0x52, 0x95, 0x3b, 0x3e, 0xd0, 0xfd, 0xcb, 0xbd,
  0x40, 0xef, 0x31, 0xbc, 0x26, 0x56, 0x1f, 0xbe, 0xa6, 0xa1, 0x5a, 0x3e,
  0x2e, 0x0c, 0x6b, 0x3e, 0x38, 0x9d, 0x01, 0xbf, 0xba, 0xa3, 0x74, 0xbe,
  0x3f, 0x0a, 0xa9, 0xbe, 0x36, 0xf3, 0x59, 0x3e, 0xcb, 0xdf, 0xc6, 0xbe,
  0xce, 0xc1, 0x8f, 0xbe, 0x50, 0xde, 0x4d, 0x3d, 0x6b, 0xff, 0xec, 0x3e,
  0x39, 0xc3, 0x9c, 0x3e, 0x2c, 0xfa, 0xb2, 0x3e, 0xc0, 0x32, 0xda, 0xbd,
  0xec, 0x46, 0xa3, 0x3d, 0xc6, 0xbf, 0x18, 0x3e, 0xed, 0x68, 0x94, 0x3e,
  0x42, 0x33, 0x9e, 0xbe, 0xb0, 0xc2, 0xb9, 0xbe, 0x54, 0x9e, 0x89, 0x3d,
  0x24, 0xc1, 0x11, 0x3e, 0xbd, 0x0d, 0x8d, 0x3e, 0xd0, 0xdb, 0xd3, 0xbe,
  0xe0, 0x9b, 0x04, 0xbd, 0xd0, 0x71, 0xad, 0xbe, 0xb6, 0x8a, 0xa5, 0xbe,
  0xed, 0x36, 0xc8, 0xbe, 0x4c, 0x82, 0x45, 0xbe, 0x58, 0x37, 0xfd, 0x3e,
  0xca, 0xf3, 0x08, 0xbf, 0x12, 0x2f, 0x38, 0x3e, 0xc0, 0x51, 0x0b, 0xbd,
  0x66, 0xf7, 0xc2, 0xbe, 0xe5, 0x40, 0xdb, 0x3e, 0x00, 0x37, 0x0b, 0xbd,
  0x23, 0xb3, 0x77, 0x3e, 0x7a, 0x8a, 0xb6, 0xbe, 0xb0, 0x81, 0x72, 0xbd,
  0x3f, 0x37, 0x08, 0x3e, 0x41, 0xd8, 0xdb, 0x3e, 0x3c, 0xdc, 0xd6, 0x3d,
  0x4b, 0x6a, 0xc8, 0xbe, 0x2f, 0x81, 0x09, 0x3e, 0xa4, 0x0e, 0x81, 0xbe,
  0xa9, 0xf2, 0xe1, 0xbd, 0xda, 0x74, 0x9d, 0x3e, 0x65, 0x20, 0x8c, 0x3e,
  0xd0, 0x71, 0xa4, 0xbd, 0xa0, 0x47, 0xb8, 0xbc, 0xf4, 0x01, 0x8a, 0xbe,
  0x53, 0x2d, 0xc1, 0xbe, 0x30, 0x34, 0x97, 0x3b, 0x99, 0xf1, 0x90, 0x3c,
  0xed, 0x86, 0xc0, 0xbe, 0x0b, 0xd1, 0xb9, 0xbe, 0x68, 0x74, 0x39, 0xbe,
  0x91, 0xb9, 0x92, 0x3e, 0xd9, 0xc2, 0xd1, 0x3e, 0xd4, 0xac, 0xd2, 0x3d,
  0x69, 0x98, 0xbe, 0x3e, 0x49, 0x07, 0x0d, 0xbe, 0x83, 0x06, 0x97, 0xbe,
  0x73, 0xfa, 0xa7, 0xbe, 0xdc, 0x0a, 0xbb, 0x3d, 0x5a, 0xe4, 0x09, 0x3e,
  0xdb, 0xc9, 0xd0, 0x3e, 0x36, 0xa8, 0x18, 0xbe, 0x4b, 0x3b, 0x4a, 0x3e,
  0xa1, 0x8e, 0xdf, 0x3e, 0x49, 0xa5, 0x98, 0xbe, 0xfc, 0x95, 0x1c, 0xbe,
  0x90, 0xb1, 0x51, 0x3d, 0x01, 0x15, 0x74, 0xbe, 0x5c, 0xb5, 0x2c, 0xbe,
  0xdc, 0xf8, 0xe5, 0xbd, 0x4b, 0x64, 0xa0, 0xbe, 0x22, 0xf4, 0x1d, 0x3d,
  0xb7, 0x56, 0x18, 0xbf, 0x51, 0x41, 0xa3, 0xbe, 0x84, 0x43, 0xa9, 0x3d,
  0x18, 0x9d, 0xe2, 0xbd, 0x40, 0x09, 0x24, 0xbd, 0xde, 0x03, 0x78, 0xbe,
  0x69, 0xee, 0x46, 0xbf, 0x8d, 0x5f, 0x01, 0x3f, 0x8c, 0x01, 0xe2, 0x3d,
  0xb7, 0x6d, 0x81, 0x3e, 0x5f, 0x32, 0x53, 0xbe, 0x1c, 0x46, 0xbc, 0x3d,
  0x80, 0xb0, 0x6f, 0xbc, 0xe6, 0xbc, 0x89, 0xbe, 0xd8, 0x4a, 0x87, 0x3d,
  0x69, 0xdf, 0xae, 0x3e, 0x18, 0x83, 0xda, 0xbe, 0x5d, 0x81, 0x3d, 0xbe,
  0xb8, 0xb9, 0x8b, 0xbe, 0xa4, 0xd1, 0xf3, 0x3d, 0x6a, 0xcc, 0x22, 0x3e,
  0x4f, 0x54, 0xc8, 0x3e, 0x30, 0xa0, 0x06, 0xbe, 0x3e, 0x5a, 0x4f, 0xbe,
  0x15, 0x53, 0x83, 0x3e, 0x34, 0x4f, 0x94, 0xbe, 0xbc, 0x71, 0x1b, 0xbe,
  0x63, 0x06, 0xb8, 0xbe, 0xc8, 0xb3, 0x71, 0xbd, 0x08, 0xd0, 0x70, 0x3d,
  0x80, 0x8b, 0x0b, 0xbc, 0xc6, 0x85, 0x61, 0xbe, 0x8c, 0x87, 0xa6, 0x3d,
  0xd7, 0xdf, 0xd4, 0xbe, 0xc4, 0x77, 0x81, 0xbd, 0x9c, 0x0b, 0x30, 0xbe,
  0x84, 0x63, 0x8d, 0xbe, 0xf2, 0xaa, 0x3c, 0x3e, 0x29, 0x29, 0x8d, 0x3e,
  0x73, 0x67, 0x81, 0xbd, 0xe4, 0xc2, 0x8a, 0x3d, 0x8f, 0x29, 0x06, 0x3e,
  0x37, 0x68, 0xaf, 0xbe, 0xf4, 0x94, 0xc2, 0x3d, 0xb8, 0x4c, 0xb7, 0xbe,
  0x38, 0xc7, 0xb8, 0x3e, 0x88, 0x14, 0x6a, 0xbd, 0x4f, 0x9b, 0x29, 0x3e,
  0x45, 0x84, 0x49, 0xbe, 0xe0, 0x18, 0xeb, 0xbd, 0xe8, 0x80, 0x85, 0xbe,
  0xda, 0xe8, 0x6a, 0x3e, 0x66, 0xb7, 0x27, 0x3e, 0x08, 0x2e, 0x00, 0xbd,
  0x77, 0xd2, 0xd8, 0x3e, 0x4f, 0x9e, 0x80, 0xbe, 0x15, 0x2b, 0x8e, 0x3e,
  0xde, 0xd6, 0x21, 0x3e, 0xf8, 0xd8, 0x34, 0xbd, 0x4c, 0x47, 0xf1, 0x3d,
  0x86, 0x80, 0x94, 0xbe, 0xcf, 0xe9, 0x1e, 0xbe, 0xb6, 0xc4, 0x3b, 0xbe,
  0x30, 0xba, 0x2c, 0xbe, 0x25, 0xe1, 0x8c, 0x3d, 0x63, 0xd0, 0x9c, 0x3e,
  0x18, 0xcf, 0xca, 0xbd, 0xf8, 0xc0, 0x82, 0x3d, 0x3b, 0xf2, 0x6c, 0xbe,
  0x41, 0xc9, 0xb0, 0x3e, 0xa2, 0xff, 0xff, 0xff, 0x04, 0x00, 0x00, 0x00,
  0x40, 0x00, 0x00, 0x00, 0x30, 0x7a, 0xce, 0x3f, 0x9e, 0x33, 0x5f, 0x3f,
  0x26, 0xda, 0xa4, 0x3e, 0xca, 0xaf, 0x60, 0x3f, 0xca, 0x7f, 0x83, 0xbf,
  0x10, 0x95, 0x1f, 0x3e, 0x4e, 0x25, 0x16, 0xbf, 0x12, 0xdd, 0x3e, 0x3f,
  0xfc, 0x5d, 0x5f, 0xbf, 0x29, 0xd7, 0xea, 0x3d, 0x02, 0x4d, 0x8b, 0xbd,
  0xa5, 0x32, 0x74, 0x3f, 0x74, 0xe9, 0x37, 0xbf, 0x52, 0x44, 0x13, 0x3f,
  0x5b, 0xb0, 0xb2, 0xbd, 0xc0, 0xff, 0xba, 0x3f, 0xee, 0xff, 0xff, 0xff,
  0x04, 0x00, 0x00, 0x00, 0x04, 0x00, 0x00, 0x00, 0xa5, 0x89, 0x8a, 0xbe,
  0x00, 0x00, 0x06, 0x00, 0x08, 0x00, 0x04, 0x00, 0x06, 0x00, 0x00, 0x00,
  0x04, 0x00, 0x00, 0x00, 0x40, 0x00, 0x00, 0x00, 0xbd, 0x3d, 0x04, 0xbf,
  0x47, 0x6e, 0xc6, 0x3e, 0x6d, 0x76, 0xb0, 0xbe, 0xca, 0x14, 0xcb, 0x3e,
  0x5e, 0x42, 0xd5, 0x3e, 0x00, 0x00, 0x00, 0x00, 0x0c, 0x15, 0xb6, 0x3d,
  0x87, 0x03, 0xce, 0x3e, 0xc0, 0x4a, 0x92, 0x3e, 0xc9, 0xee, 0x19, 0xbe,
  0xed, 0xbf, 0xa3, 0xba, 0xe5, 0xdc, 0xc8, 0x3e, 0x87, 0xc8, 0xff, 0x3e,
  0x00, 0x00, 0x00, 0x00, 0x70, 0xea, 0x76, 0x3d, 0x9a, 0x99, 0xa4, 0xbe,
  0xdc, 0xfa, 0xff, 0xff, 0xe0, 0xfa, 0xff, 0xff, 0x0f, 0x00, 0x00, 0x00,
  0x4d, 0x4c, 0x49, 0x52, 0x20, 0x43, 0x6f, 0x6e, 0x76, 0x65, 0x72, 0x74,
  0x65, 0x64, 0x2e, 0x00, 0x01, 0x00, 0x00, 0x00, 0x14, 0x00, 0x00, 0x00,
  0x00, 0x00, 0x0e, 0x00, 0x18, 0x00, 0x14, 0x00, 0x10, 0x00, 0x0c, 0x00,
  0x08, 0x00, 0x04, 0x00, 0x0e, 0x00, 0x00, 0x00, 0x14, 0x00, 0x00, 0x00,
  0x1c, 0x00, 0x00, 0x00, 0xe8, 0x00, 0x00, 0x00, 0xec, 0x00, 0x00, 0x00,
  0xf0, 0x00, 0x00, 0x00, 0x04, 0x00, 0x00, 0x00, 0x6d, 0x61, 0x69, 0x6e,
  0x00, 0x00, 0x00, 0x00, 0x03, 0x00, 0x00, 0x00, 0x90, 0x00, 0x00, 0x00,
  0x48, 0x00, 0x00, 0x00, 0x04, 0x00, 0x00, 0x00, 0xce, 0xff, 0xff, 0xff,
  0x10, 0x00, 0x00, 0x00, 0x00, 0x00, 0x00, 0x08, 0x0c, 0x00, 0x00, 0x00,
  0x10, 0x00, 0x00, 0x00, 0x58, 0xfb, 0xff, 0xff, 0x01, 0x00, 0x00, 0x00,
  0x09, 0x00, 0x00, 0x00, 0x03, 0x00, 0x00, 0x00, 0x08, 0x00, 0x00, 0x00,
  0x03, 0x00, 0x00, 0x00, 0x02, 0x00, 0x00, 0x00, 0x00, 0x00, 0x0e, 0x00,
  0x14, 0x00, 0x00, 0x00, 0x10, 0x00, 0x0c, 0x00, 0x0b, 0x00, 0x04, 0x00,
  0x0e, 0x00, 0x00, 0x00, 0x10, 0x00, 0x00, 0x00, 0x00, 0x00, 0x00, 0x08,
  0x10, 0x00, 0x00, 0x00, 0x14, 0x00, 0x00, 0x00, 0xba, 0xff, 0xff, 0xff,
  0x00, 0x00, 0x00, 0x01, 0x01, 0x00, 0x00, 0x00, 0x08, 0x00, 0x00, 0x00,
  0x03, 0x00, 0x00, 0x00, 0x07, 0x00, 0x00, 0x00, 0x04, 0x00, 0x00, 0x00,
  0x01, 0x00, 0x00, 0x00, 0x00, 0x00, 0x0e, 0x00, 0x16, 0x00, 0x00, 0x00,
  0x10, 0x00, 0x0c, 0x00, 0x0b, 0x00, 0x04, 0x00, 0x0e, 0x00, 0x00, 0x00,
  0x18, 0x00, 0x00, 0x00, 0x00, 0x00, 0x00, 0x08, 0x18, 0x00, 0x00, 0x00,
  0x1c, 0x00, 0x00, 0x00, 0x00, 0x00, 0x06, 0x00, 0x08, 0x00, 0x07, 0x00,
  0x06, 0x00, 0x00, 0x00, 0x00, 0x00, 0x00, 0x01, 0x01, 0x00, 0x00, 0x00,
  0x07, 0x00, 0x00, 0x00, 0x03, 0x00, 0x00, 0x00, 0x00, 0x00, 0x00, 0x00,
  0x05, 0x00, 0x00, 0x00, 0x06, 0x00, 0x00, 0x00, 0x01, 0x00, 0x00, 0x00,
  0x09, 0x00, 0x00, 0x00, 0x01, 0x00, 0x00, 0x00, 0x00, 0x00, 0x00, 0x00,
  0x0a, 0x00, 0x00, 0x00, 0xc0, 0x03, 0x00, 0x00, 0x40, 0x03, 0x00, 0x00,
  0xe0, 0x02, 0x00, 0x00, 0x90, 0x02, 0x00, 0x00, 0x40, 0x02, 0x00, 0x00,
  0xf4, 0x01, 0x00, 0x00, 0x90, 0x01, 0x00, 0x00, 0xfc, 0x00, 0x00, 0x00,
  0x60, 0x00, 0x00, 0x00, 0x04, 0x00, 0x00, 0x00, 0x7e, 0xfc, 0xff, 0xff,
  0x00, 0x00, 0x00, 0x01, 0x14, 0x00, 0x00, 0x00, 0x1c, 0x00, 0x00, 0x00,
  0x1c, 0x00, 0x00, 0x00, 0x0a, 0x00, 0x00, 0x00, 0x34, 0x00, 0x00, 0x00,
  0x02, 0x00, 0x00, 0x00, 0xff, 0xff, 0xff, 0xff, 0x01, 0x00, 0x00, 0x00,
  0x68, 0xfc, 0xff, 0xff, 0x1b, 0x00, 0x00, 0x00, 0x53, 0x74, 0x61, 0x74,
  0x65, 0x66, 0x75, 0x6c, 0x50, 0x61, 0x72, 0x74, 0x69, 0x74, 0x69, 0x6f,
  0x6e, 0x65, 0x64, 0x43, 0x61, 0x6c, 0x6c, 0x5f, 0x31, 0x3a, 0x30, 0x00,
  0x02, 0x00, 0x00, 0x00, 0x01, 0x00, 0x00, 0x00, 0x01, 0x00, 0x00, 0x00,
  0xd6, 0xfc, 0xff, 0xff, 0x00, 0x00, 0x00, 0x01, 0x14, 0x00, 0x00, 0x00,
  0x1c, 0x00, 0x00, 0x00, 0x1c, 0x00, 0x00, 0x00, 0x09, 0x00, 0x00, 0x00,
  0x74, 0x00, 0x00, 0x00, 0x02, 0x00, 0x00, 0x00, 0xff, 0xff, 0xff, 0xff,
  0x10, 0x00, 0x00, 0x00, 0xc0, 0xfc, 0xff, 0xff, 0x58, 0x00, 0x00, 0x00,
  0x73, 0x65, 0x71, 0x75, 0x65, 0x6e, 0x74, 0x69, 0x61, 0x6c, 0x5f, 0x31,
  0x2f, 0x64, 0x65, 0x6e, 0x73, 0x65, 0x5f, 0x31, 0x5f, 0x32, 0x2f, 0x4d,
  0x61, 0x74, 0x4d, 0x75, 0x6c, 0x3b, 0x73, 0x65, 0x71, 0x75, 0x65, 0x6e,
  0x74, 0x69, 0x61, 0x6c, 0x5f, 0x31, 0x2f, 0x64, 0x65, 0x6e, 0x73, 0x65,
  0x5f, 0x31, 0x5f, 0x32, 0x2f, 0x52, 0x65, 0x6c, 0x75, 0x3b, 0x73, 0x65,
  0x71, 0x75, 0x65, 0x6e, 0x74, 0x69, 0x61, 0x6c, 0x5f, 0x31, 0x2f, 0x64,
  0x65, 0x6e, 0x73, 0x65, 0x5f, 0x31, 0x5f, 0x32, 0x2f, 0x42, 0x69, 0x61,
  0x73, 0x41, 0x64, 0x64, 0x00, 0x00, 0x00, 0x00, 0x02, 0x00, 0x00, 0x00,
  0x01, 0x00, 0x00, 0x00, 0x10, 0x00, 0x00, 0x00, 0x6e, 0xfd, 0xff, 0xff,
  0x00, 0x00, 0x00, 0x01, 0x14, 0x00, 0x00, 0x00, 0x1c, 0x00, 0x00, 0x00,
  0x1c, 0x00, 0x00, 0x00, 0x08, 0x00, 0x00, 0x00, 0x6c, 0x00, 0x00, 0x00,
  0x02, 0x00, 0x00, 0x00, 0xff, 0xff, 0xff, 0xff, 0x10, 0x00, 0x00, 0x00,
  0x58, 0xfd, 0xff, 0xff, 0x52, 0x00, 0x00, 0x00, 0x73, 0x65, 0x71, 0x75,
  0x65, 0x6e, 0x74, 0x69, 0x61, 0x6c, 0x5f, 0x31, 0x2f, 0x64, 0x65, 0x6e,
  0x73, 0x65, 0x5f, 0x31, 0x2f, 0x4d, 0x61, 0x74, 0x4d, 0x75, 0x6c, 0x3b,
  0x73, 0x65, 0x71, 0x75, 0x65, 0x6e, 0x74, 0x69, 0x61, 0x6c, 0x5f, 0x31,
  0x2f, 0x64, 0x65, 0x6e, 0x73, 0x65, 0x5f, 0x31, 0x2f, 0x52, 0x65, 0x6c,
  0x75, 0x3b, 0x73, 0x65, 0x71, 0x75, 0x65, 0x6e, 0x74, 0x69, 0x61, 0x6c,
  0x5f, 0x31, 0x2f, 0x64, 0x65, 0x6e, 0x73, 0x65, 0x5f, 0x31, 0x2f, 0x42,
  0x69, 0x61, 0x73, 0x41, 0x64, 0x64, 0x00, 0x00, 0x02, 0x00, 0x00, 0x00,
  0x01, 0x00, 0x00, 0x00, 0x10, 0x00, 0x00, 0x00, 0x7a, 0xfe, 0xff, 0xff,
  0x00, 0x00, 0x00, 0x01, 0x10, 0x00, 0x00, 0x00, 0x10, 0x00, 0x00, 0x00,
  0x07, 0x00, 0x00, 0x00, 0x44, 0x00, 0x00, 0x00, 0xd8, 0xfd, 0xff, 0xff,
  0x36, 0x00, 0x00, 0x00, 0x73, 0x65, 0x71, 0x75, 0x65, 0x6e, 0x74, 0x69,
  0x61, 0x6c, 0x5f, 0x31, 0x2f, 0x64, 0x65, 0x6e, 0x73, 0x65, 0x5f, 0x31,
  0x2f, 0x52, 0x65, 0x6c, 0x75, 0x3b, 0x73, 0x65, 0x71, 0x75, 0x65, 0x6e,
  0x74, 0x69, 0x61, 0x6c, 0x5f, 0x31, 0x2f, 0x64, 0x65, 0x6e, 0x73, 0x65,
  0x5f, 0x31, 0x2f, 0x42, 0x69, 0x61, 0x73, 0x41, 0x64, 0x64, 0x00, 0x00,
  0x01, 0x00, 0x00, 0x00, 0x10, 0x00, 0x00, 0x00, 0xda, 0xfe, 0xff, 0xff,
  0x00, 0x00, 0x00, 0x01, 0x10, 0x00, 0x00, 0x00, 0x10, 0x00, 0x00, 0x00,
  0x06, 0x00, 0x00, 0x00, 0x28, 0x00, 0x00, 0x00, 0x38, 0xfe, 0xff, 0xff,
  0x1b, 0x00, 0x00, 0x00, 0x73, 0x65, 0x71, 0x75, 0x65, 0x6e, 0x74, 0x69,
  0x61, 0x6c, 0x5f, 0x31, 0x2f, 0x64, 0x65, 0x6e, 0x73, 0x65, 0x5f, 0x31,
  0x2f, 0x4d, 0x61, 0x74, 0x4d, 0x75, 0x6c, 0x00, 0x02, 0x00, 0x00, 0x00,
  0x10, 0x00, 0x00, 0x00, 0x01, 0x00, 0x00, 0x00, 0x22, 0xff, 0xff, 0xff,
  0x00, 0x00, 0x00, 0x01, 0x10, 0x00, 0x00, 0x00, 0x10, 0x00, 0x00, 0x00,
  0x05, 0x00, 0x00, 0x00, 0x2c, 0x00, 0x00, 0x00, 0x80, 0xfe, 0xff, 0xff,
  0x1d, 0x00, 0x00, 0x00, 0x73, 0x65, 0x71, 0x75, 0x65, 0x6e, 0x74, 0x69,
  0x61, 0x6c, 0x5f, 0x31, 0x2f, 0x64, 0x65, 0x6e, 0x73, 0x65, 0x5f, 0x31,
  0x5f, 0x32, 0x2f, 0x4d, 0x61, 0x74, 0x4d, 0x75, 0x6c, 0x00, 0x00, 0x00,
  0x02, 0x00, 0x00, 0x00, 0x10, 0x00, 0x00, 0x00, 0x10, 0x00, 0x00, 0x00,
  0x6e, 0xff, 0xff, 0xff, 0x00, 0x00, 0x00, 0x01, 0x10, 0x00, 0x00, 0x00,
  0x10, 0x00, 0x00, 0x00, 0x04, 0x00, 0x00, 0x00, 0x2c, 0x00, 0x00, 0x00,
  0xcc, 0xfe, 0xff, 0xff, 0x1d, 0x00, 0x00, 0x00, 0x73, 0x65, 0x71, 0x75,
  0x65, 0x6e, 0x74, 0x69, 0x61, 0x6c, 0x5f, 0x31, 0x2f, 0x64, 0x65, 0x6e,
  0x73, 0x65, 0x5f, 0x32, 0x5f, 0x31, 0x2f, 0x4d, 0x61, 0x74, 0x4d, 0x75,
  0x6c, 0x00, 0x00, 0x00, 0x02, 0x00, 0x00, 0x00, 0x01, 0x00, 0x00, 0x00,
  0x10, 0x00, 0x00, 0x00, 0xba, 0xff, 0xff, 0xff, 0x00, 0x00, 0x00, 0x01,
  0x10, 0x00, 0x00, 0x00, 0x10, 0x00, 0x00, 0x00, 0x03, 0x00, 0x00, 0x00,
  0x28, 0x00, 0x00, 0x00, 0x18, 0xff, 0xff, 0xff, 0x1a, 0x00, 0x00, 0x00,
  0x73, 0x65, 0x71, 0x75, 0x65, 0x6e, 0x74, 0x69, 0x61, 0x6c, 0x5f, 0x31,
  0x2f, 0x64, 0x65, 0x6e, 0x73, 0x65, 0x5f, 0x32, 0x5f, 0x31, 0x2f, 0x41,
  0x64, 0x64, 0x00, 0x00, 0x01, 0x00, 0x00, 0x00, 0x01, 0x00, 0x00, 0x00,
  0x00, 0x00, 0x16, 0x00, 0x18, 0x00, 0x14, 0x00, 0x00, 0x00, 0x10, 0x00,
  0x0c, 0x00, 0x08, 0x00, 0x00, 0x00, 0x00, 0x00, 0x00, 0x00, 0x07, 0x00,
  0x16, 0x00, 0x00, 0x00, 0x00, 0x00, 0x00, 0x01, 0x10, 0x00, 0x00, 0x00,
  0x10, 0x00, 0x00, 0x00, 0x02, 0x00, 0x00, 0x00, 0x48, 0x00, 0x00, 0x00,
  0x74, 0xff, 0xff, 0xff, 0x3a, 0x00, 0x00, 0x00, 0x73, 0x65, 0x71, 0x75,
  0x65, 0x6e, 0x74, 0x69, 0x61, 0x6c, 0x5f, 0x31, 0x2f, 0x64, 0x65, 0x6e,
  0x73, 0x65, 0x5f, 0x31, 0x5f, 0x32, 0x2f, 0x52, 0x65, 0x6c, 0x75, 0x3b,
  0x73, 0x65, 0x71, 0x75, 0x65, 0x6e, 0x74, 0x69, 0x61, 0x6c, 0x5f, 0x31,
  0x2f, 0x64, 0x65, 0x6e, 0x73, 0x65, 0x5f, 0x31, 0x5f, 0x32, 0x2f, 0x42,
  0x69, 0x61, 0x73, 0x41, 0x64, 0x64, 0x00, 0x00, 0x01, 0x00, 0x00, 0x00,
  0x10, 0x00, 0x00, 0x00, 0x00, 0x00, 0x16, 0x00, 0x1c, 0x00, 0x18, 0x00,
  0x00, 0x00, 0x14, 0x00, 0x10, 0x00, 0x0c, 0x00, 0x00, 0x00, 0x00, 0x00,
  0x08, 0x00, 0x07, 0x00, 0x16, 0x00, 0x00, 0x00, 0x00, 0x00, 0x00, 0x01,
  0x14, 0x00, 0x00, 0x00, 0x20, 0x00, 0x00, 0x00, 0x20, 0x00, 0x00, 0x00,
  0x01, 0x00, 0x00, 0x00, 0x3c, 0x00, 0x00, 0x00, 0x02, 0x00, 0x00, 0x00,
  0xff, 0xff, 0xff, 0xff, 0x01, 0x00, 0x00, 0x00, 0x04, 0x00, 0x04, 0x00,
  0x04, 0x00, 0x00, 0x00, 0x1e, 0x00, 0x00, 0x00, 0x73, 0x65, 0x72, 0x76,
  0x69, 0x6e, 0x67, 0x5f, 0x64, 0x65, 0x66, 0x61, 0x75, 0x6c, 0x74, 0x5f,
  0x6b, 0x65, 0x72, 0x61, 0x73, 0x5f, 0x74, 0x65, 0x6e, 0x73, 0x6f, 0x72,
  0x3a, 0x30, 0x00, 0x00, 0x02, 0x00, 0x00, 0x00, 0x01, 0x00, 0x00, 0x00,
  0x01, 0x00, 0x00, 0x00, 0x01, 0x00, 0x00, 0x00, 0x10, 0x00, 0x00, 0x00,
  0x0c, 0x00, 0x0c, 0x00, 0x0b, 0x00, 0x00, 0x00, 0x00, 0x00, 0x04, 0x00,
  0x0c, 0x00, 0x00, 0x00, 0x09, 0x00, 0x00, 0x00, 0x00, 0x00, 0x00, 0x09
 
};

#endif //SINE_MODEL_H