#include "ll_aton.h"

/* global pool 8 is 1284 bytes */
/* index=8 file postfix=xSPI2 name=octoFlash offset=0x71000000  relative_mode size=117440512 READ_ONLY THROUGHPUT=MID LATENCY=HIGH byte width=1 freq ratio=6 burst max length=MAXINT burst penalty=0 pipelined=ON cacheable=ON read_power=110 write_power=400 use4initializers=YES score=50  */
LL_ATON_ALIGNED(64) const uint64_t _mem_pool_xSPI2_network[161] = {

0xBE4F702A3E0FCA1DULL,0xBC43BD57BE3D8D6FULL,0xBEB980F6BD8A7A6CULL,0xBE9FF2B63E8560CFULL,0x3D9765C5BE049D48ULL,0x3EC456FD3EC8F0EFULL,0xBE1511B4BE9605C0ULL,0xBD1147B03ECDFBBFULL,
0x3EF57DC8BE800B1DULL,0xBE146B82BE9237E8ULL,0x3EBD0AD33D0EA5B0ULL,0x3E60435A3E8C35D5ULL,0x3E21BC543EC026F3ULL,0xBD0C0A68BF1419D9ULL,0xBC454F603E3FC20EULL,0xBEA00003BEC7CA11ULL,
0xBEFCF19DBE005B2CULL,0xBE58BB34BC118E80ULL,0x3CB13C903E7C093AULL,0x3EB6B27C3E448942ULL,0xBD2234923EDAEC83ULL,0x3E6F8FE23EE7A89AULL,0x3E9976AFBC9CC630ULL,0xBEA033563DD185ACULL,
0x3E22F7BCBE3BA484ULL,0xBE8D48483ED6E0F1ULL,0x3BC809003D8E9E9CULL,0x3EC0F3FCBE7DC5ECULL,0x3E7E767C3DBBF694ULL,0x3CCED6F0BF1D64BBULL,0x3E4F9196BE9E6AEAULL,0x3C7A0FC0BDAA62D4ULL,
0x3D09EAF9BF498985ULL,0xBE1248B2BECE8630ULL,0x3E8F22413EC86B89ULL,0xBD1FFBD33D1381F8ULL,0x3E9E2F6ABDEA4164ULL,0x3E8C8273BE39E6C5ULL,0xBEB486303EA39FD5ULL,0xBE965EAEBE62A012ULL,
0xBE803F663E0041A6ULL,0xBEB42F1C3E2C203EULL,0xBEC055FBBE8DC364ULL,0x3C84BB20BEDC4BC7ULL,0xBE260046BE6B5175ULL,0xBE860662BE0FEB82ULL,0xBE16B846BEA44400ULL,0xBE3B3AEEBA4F2400ULL,
0xBBBFDB413E986A65ULL,0xBEDB17B2BEB146CAULL,0xBEDD13763E9CB6D5ULL,0xBEB2B305BEB149F4ULL,0x3EEE9596BD8F7C08ULL,0xBDCBFDD03E3B9552ULL,0xBE1F5626BC31EF40ULL,0x3E6B0C2E3E5AA1A6ULL,
0xBE74A3BABF019D38ULL,0x3E59F336BEA90A3FULL,0xBE8FC1CEBEC6DFCBULL,0x3EECFF6B3D4DDE50ULL,0x3EB2FA2C3E9CC339ULL,0x3DA346ECBDDA32C0ULL,0x3E9468ED3E18BFC6ULL,0xBEB9C2B0BE9E3342ULL,
0x3E11C1243D899E54ULL,0xBED3DBD03E8D0DBDULL,0xBEAD71D0BD049BE0ULL,0xBEC836EDBEA58AB6ULL,0x3EFD3758BE45824CULL,0x3E382F12BF08F3CAULL,0xBEC2F766BD0B51C0ULL,0xBD0B37003EDB40E5ULL,
0xBEB68A7A3E77B323ULL,0x3E08373FBD7281B0ULL,0x3DD6DC3C3EDBD841ULL,0x3E09812FBEC86A4BULL,0xBDE1F2A9BE810EA4ULL,0x3E8C20653E9D74DAULL,0xBCB847A0BDA471D0ULL,0xBEC12D53BE8A01F4ULL,
0x3C90F1993B973430ULL,0xBEB9D10BBEC086EDULL,0x3E92B991BE397468ULL,0x3DD2ACD43ED1C2D9ULL,0xBE0D07493EBE9869ULL,0xBEA7FA73BE970683ULL,0x3E09E45A3DBB0ADCULL,0xBE18A8363ED0C9DBULL,
0x3EDF8EA13E4A3B4BULL,0xBE1C95FCBE98A549ULL,0xBE7415013D51B190ULL,0xBDE5F8DCBE2CB55CULL,0x3D1DF422BEA0644BULL,0xBEA34151BF1856B7ULL,0xBDE29D183DA94384ULL,0xBE7803DEBD240940ULL,
0x3F015F8DBF46EE69ULL,0x3E816DB73DE2018CULL,0x3DBC461CBE53325FULL,0xBE89BCE6BC6FB080ULL,0x3EAEDF693D874AD8ULL,0xBE3D815DBEDA8318ULL,0x3DF3D1A4BE8BB9B8ULL,0x3EC8544F3E22CC6AULL,
0xBE4F5A3EBE06A030ULL,0xBE944F343E835315ULL,0xBEB80663BE1B71BCULL,0x3D70D008BD71B3C8ULL,0xBE6185C6BC0B8B80ULL,0xBED4DFD73DA6878CULL,0xBE300B9CBD8177C4ULL,0x3E3CAAF2BE8D6384ULL,
0xBD8167733E8D2929ULL,0x3E06298F3D8AC2E4ULL,0x3DC294F4BEAF6837ULL,0x3EB8C738BEB74CB8ULL,0x3E299B4FBD6A1488ULL,0xBDEB18E0BE498445ULL,0x3E6AE8DABE8580E8ULL,0xBD002E083E27B766ULL,
0xBE809E4F3ED8D277ULL,0x3E21D6DE3E8E2B15ULL,0x3DF1474CBD34D8F8ULL,0xBE1EE9CFBE948086ULL,0xBE2CBA30BE3BC4B6ULL,0x3E9CD0633D8CE125ULL,0x3D82C0F8BDCACF18ULL,0x3EB0C941BE6CF23BULL,
0x3E7DCAC43F1FD4F9ULL,0xB9BCAB44BDBA7538ULL,0xBDA52618BF04AEBCULL,0x3ED1701CBEE67837ULL,0x3E250F8DBCE2A340ULL,0xBEF065CD3F30728EULL,0xBE468B6EBE60C2BEULL,0xBDD93808BF053784ULL,
0x3F2DE74BBE021B9CULL,0xBC0B825D00000000ULL,0,0x3E9510D400000000ULL,0x3F688DD400000000ULL,0x00000000BF17FCFDULL,0,0,
0x3EC66E47BF043DBDULL,0x3ECB14CABEB0766DULL,0x000000003ED5425EULL,0x3ECE03873DB6150CULL,0xBE19EEC93E924AC0ULL,0x3EC8DCE5BAA3BFEDULL,0x000000003EFFC887ULL,0xBEA4999A3D76EA70ULL,
0x3F5F339E3FCE7A30ULL,0x3F60AFCA3EA4DA26ULL,0x3E1F9510BF837FCAULL,0x3F3EDD12BF16254EULL,0x3DEAD729BF5F5DFCULL,0x3F7432A5BD8B4D02ULL,0x3F134452BF37E974ULL,0x3FBAFFC0BDB2B05BULL,
0x00000000BE8A89A5ULL,
};
